008BFF8E
0154005E
00C7FFE5
004BFFBC
01C7FFA8
00D3FF9D
0005FF88
00A9FF88
005FFFAA
0182000B
00400050
01F6007B
009FFFE0
0027FFFA
016C0042
00EFFFC7
016E0064
00C20002
003E0002
006E0040
01440008
01F5FFE4
0183FFE0
0171FFA7
0149FF8D
018FFF9A
00B9FFC2
0106003F
01360011
01120018
01A7FFF0
005FFFD0
0102000F
015A0023
006A003B
001C0042
00B7FFA6
0159FFF6
00A9FFB8
0128005F
01700032
00E20061
0063FFF6
01BDFFA1
00D9FFBC
006BFFB8
013E0040
0194001C
01E00059
0065FFED
0145FFC3
01D7FFE1
0081FF9B
01DDFFBF
0007FFDC
01AC0032
00600040
0151FFC2
004A0054
00200076
00E7FFE7
001A007F
01D3FF8B
0011FF8B
0046002B
016DFF8D
001C006C
000C002B
013DFFA6
0103FF85
00F60018
00C9FFCC
01B3FFDA
019A0008
017C000F
0019FF8A
01820044
01300031
00A9FF89
00A5FF82
0140001C
0078004F
0076005A
019FFFB5
0193FF8D
0035FFDB
01AE0047
00CC0021
01EE0003
00280010
00DBFFF2
006E0031
00AC0062
0113FFAF
00B3FFAD
00060069
0197FFEF
0180003E
01F40074
00BE0012
0051FFDE
01EE0016
0021FFC5
00E9FF99
0115FFC5
01E2000A
0067FFFA
015A003E
01B7FFD7
0112003C
005A002B
000C0043
01F7FFFC
0137FFC6
014DFFC4
01900001
00B3FFB2
006BFFFC
00EFFF94
01980046
01F7FFDF
01DC0034
0189FFD6
013A004C
019DFFB9
00560008
01B6002F
01420027
01A7FFC9
00F9FF89
00C20049
017FFF9F
01100039
01A20015
009E0074
00220015
0106000D
008FFFB0
00200014
013A000C
00280013
010C0004
00DDFFEA
00440003
01D1FFC6
016C0040
00C1FFA8
00C00079
01020063
017BFFFE
0089FFFA
006BFF85
00DE0006
00B20037
000A006D
017C006F
01EE0009
013C0063
011A006B
01380064
0049FFB1
0157FFFB
0010000A
0173FF91
00F60057
0068006B
013DFFC8
01F1FFF5
00AFFFFD
00E20071
01B7FFDC
0132002C
004C0016
0031FF9E
01E5FFF5
01B6004E
004C0059
01100078
01B80024
0055FFD9
0108003D
00480039
0187FFBA
00400015
00960040
004DFFDC
00740031
0020004B
00DC0053
00A0006F
01B20062
0129FFDB
000BFFF1
00900011
012BFFF3
0122007E
0078006C
0196000D
00540058
01DFFFD0
01BE006E
0008002F
0060006E
0071FFEA
00EC0008
00AC002E
01D5FFD7
01760074
00E80009
01DDFFE0
00C7FFB9
01C9FFEA
011BFFE8
01ADFFA3
008E006F
0176007D
013FFFAA
014E0013
00B1FFD3
012C002F
0109FFFE
01E00051
00540059
0139FFBF
00300068
00AFFFB5
00260044
0160006F
0117FFC4
010A002E
00460061
00D5FFD1
000DFFA6
01D9FFC6
01EA0024
00EBFFF5
01C2005D
00680022
0023FFA4
00D4001B
017E0024
00800037
00DC001B
00660010
01460012
003E001C
01540075
0001FFE8
007E002C
00EA000B
01F40077
000A005A
0091FF88
00C40003
01FDFFA9
01DDFFD0
007DFFCA
0117FF9E
0172007A
01120007
01980023
00F1FFA1
0135FF9F
00380070
017C0043
00CDFF85
002DFFBE
01920055
00B00040
016BFFE5
0031FFC4
0057FF8A
0089FF8C
0074000F
0063FF94
01B0001D
01B40017
0163FFA6
01CA0037
002DFF8A
018A000B
005E007D
012E004F
0022001D
00240012
008E005C
007C0065
0096004D
00EC000F
01380018
01F6000D
008FFF8B
00CBFFEF
004C0016
0191FFAA
01C1FFF9
01BDFFED
008FFF9C
01B2003A
00140023
017C0054
01A4007E
0198000C
01D4000E
017A0036
01BDFFAE
01F7FFB1
008FFFB4
0066005A
0038005B
00DE0078
004BFF8F
0019FFBB
0160005A
014DFFB0
01FC0041
017DFFF5
0025FFC2
0129FFC1
009FFF91
00A3FF9B
00860047
0097FF8D
00C00019
01D3FF88
0083FF92
00C7FFDA
0166004E
0065FFC9
00C20029
01760024
01560067
0011FFF7
01100033
0097FFB1
00CFFFEC
00DBFFC4
00BFFFDE
0117FFEB
0051FFC1
014FFF84
01BA003E
009A0061
019C0019
019DFFDE
0045FFEA
007E0073
00DFFFDE
00020054
017BFFC9
0096000F
00080028
01B9FFBE
0161FF86
000BFFFA
01580063
002BFF86
00760013
01880072
01300077
01F80026
01A40030
01080044
01F9FFC4
0019FFB8
008C0004
0141FFFB
00A9FFC2
01F1FFE3
01700039
01DA004A
00D00070
01B8001F
0112001A
0001FFD4
015A0026
00F7FF86
018A0006
01A8007E
018BFFA0
0053FFE3
0125FFEF
01C40060
006FFFB8
0075FFB5
01580003
00BBFFB8
0031FFC9
017BFFFB
00D1FFD9
015E0032
00C00058
018C0018
004DFFCA
01620032
0065FFC0
01F3FFA5
0187FF84
008E000E
01C00003
0175FF94
00380056
00FBFFC8
0041FFA0
01A6005D
0019FFFA
01BC0008
00C00048
01860002
0163FFA0
0099FFAF
00860011
0169FFF5
0093FF9B
0105FF8F
00B4000A
00C40036
0027FFCF
001C0059
001E002A
0091FF86
01E60016
000E005C
00C1FFAF
01B8003A
00A4006F
00780017
01A5FF99
01D3FFA0
0172000B
007DFFF7
0166006F
01CFFFD1
010C0026
0105FFCF
0031FF94
002A0046
01CE0021
0160002A
01D80055
01C8004B
0058000E
009DFFAA
00CFFFE4
01F7FFFB
00720028
00E60040
005C000A
00CFFF8E
00FA0036
01A20023
00A60037
01B40060
0009FFCC
00A80066
010BFFB4
0089FFF1
00180071
01F7FFB9
01CE003E
00160034
00E5FFE4
00D5FFFC
00A9FF93
006E0006
00A40068
010E005E
01560029
00CFFFC0
01AE0071
01E80042
0067FFA9
013FFFD8
01DFFFDC
0098004B
00B4001E
01C2006C
016FFFC4
014E0073
0134003A
0143FFC7
002A006B
0003FFF7
018BFFB9
01DBFFCD
00100072
01880069
00EBFFA2
01760025
0029FFFE
0120001D
0027FFE6
01FA005D
01EDFF8C
0105FFBE
00F4006C
01F5FFCB
0155FF9E
00CA0038
018FFFB1
00A9FFED
01E9FF9B
01CC004F
0001FFC5
0153FF9D
0185FFE8
0065FFAA
00F4001A
00020003
01260010
00860016
019DFFE0
0023FFFE
00920004
00BC0046
00000064
004DFFD0
0091FFF8
01760061
00720067
0136004A
001DFF99
0160000E
002E0007
009BFF9F
0114007E
0001FF87
0146004F
0135FFCE
01FA007D
0098001F
0013FFE6
004DFFFE
003FFFEA
009C007F
0180001D
00F80079
00C0006C
00F0003A
0041FFAD
01AA0078
0084005C
01BDFFD2
01E7FFC4
00F5FFD9
013C0042
01EC000E
01FE0026
015FFFA9
00B9FFA9
0143FFED
01A20078
013A0072
019BFFAF
003E0039
00960037
0099FFB5
00DDFFC7
0021FF8E
00CE003E
00060022
00840024
00FE0061
0113FFB5
01C80010
01EDFFE3
01080026
00AE007D
01A9FF95
01BE006C
00A40024
006FFFAA
00260039
01F3FFE7
0087FFA8
00B1FFCF
